[PAD]
[UNK]
[CLS]
[SEP]
[BOS]
[EOS]
!
"
#
$
%
&
'
(
)
*
+
,
-
.
/
0
1
2
3
4
5
6
7
8
9
:
;
<
=
>
?
@
[
\
]
^
_
a
b
c
d
e
f
g
h
i
j
k
l
m
n
o
p
q
r
s
t
u
v
w
x
y
z
{
|
}
~
£
’
😊
😋
😒
😢
##a
##f
##e
##g
##n
##t
##h
##m
##s
##l
##v
##r
##d
##u
##c
##i
##y
##x
##o
##b
##p
##7
##w
##k
##4
##5
##0
##j
##z
##q
##9
##6
##3
##1
##8
##2
th
##en
##in
##er
##ent
##ou
to
##at
##ing
the
##gent
##or
##ed
##as
##nd
my
##ll
it
agent
##on
##ar
##es
ha
and
was
##an
##it
##et
##om
##ay
that
you
##ot
##ea
##ve
wh
in
be
##st
of
##ow
##ut
##id
##re
for
##el
##gh
##is
so
on
##oo
##le
##ri
me
##ld
is
we
##ch
##im
do
st
have
sh
##agent
ne
##ke
##lly
##ck
##ome
am
##ver
he
##ad
##ght
##ce
##end
li
##ith
##ust
go
at
##pp
with
an
when
##ir
rea
##se
##ly
##th
##ere
did
wor
su
get
but
##ter
##ould
##op
##am
##ood
##one
ab
had
##al
out
##ill
##riend
fe
not
can
they
just
##ur
##out
really
re
she
##ion
up
tim
pr
some
al
work
are
got
about
se
what
good
##ct
##ight
lo
##ast
friend
all
##est
ch
this
her
##ant
time
like
feel
##ard
tr
##art
day
##day
fr
##ear
kn
ex
happ
##ound
##king
##un
##ek
going
ba
week
##au
too
as
been
##her
##ake
##way
##ery
##ic
##ore
no
##ess
new
will
car
br
one
##and
year
very
##ind
know
ever
##ul
##ough
##ate
him
gr
##ob
hop
pl
##fe
thin
how
would
oh
them
##os
##ool
there
don
see
from
your
##ge
well
##ie
now
hope
##ally
last
yes
mo
##reat
##us
any
sa
##ong
##ice
##il
##ame
every
com
think
##ation
##ving
##ep
want
back
##other
##ous
sp
were
##ry
sc
##ers
didn
##ain
went
great
af
##all
happy
oth
##ting
or
##ass
mad
##ven
pe
bad
could
job
som
sch
than
dog
thing
somet
kid
sure
co
old
yea
other
ag
##elt
lot
wa
##dy
off
ve
felt
##ought
##hing
##ways
over
his
always
mu
loo
bet
school
##oy
peop
wait
home
bec
us
today
##ble
fir
hou
people
en
much
##ty
##ful
de
##eagent
hard
un
##ick
cl
if
con
im
first
##ause
man
##ra
di
##ily
never
##ved
##ig
##ive
le
someone
aw
fa
ar
##thing
because
##elf
##irl
has
nice
##ely
friends
girl
fin
##ish
scar
##um
##ked
ma
##ies
after
by
night
start
make
gu
##ort
years
yeah
who
##atch
##igh
##ide
fam
##own
int
##itt
##pe
love
##self
house
happen
family
stu
even
hel
##ol
##ite
made
try
need
long
whi
more
##aught
##ist
way
##ff
pret
tri
##ft
rec
should
help
life
right
##xt
ro
dr
kids
still
into
pretty
part
best
##em
##friend
par
litt
sound
little
##iss
##ning
##eal
things
fun
away
##nder
next
thank
thr
saw
##ine
found
take
getting
something
##ose
##per
our
##kes
comp
##oney
bu
weekend
mon
though
money
qu
better
play
##ell
then
watch
its
hear
##mor
##ac
##uck
down
sor
##pr
##ci
cou
sorry
##ently
##ated
kind
##nt
##ents
##ild
rem
mom
##ag
month
exc
ac
##oss
does
feeling
ta
sounds
ke
bef
##iz
##ited
days
before
##ber
daught
miss
being
while
took
son
##ead
wow
##vie
app
why
##terday
yesterday
big
find
##wn
myself
##ating
bel
wi
scared
brother
may
ready
che
cr
##erv
pass
recently
inter
##urn
##ue
##ree
end
able
dri
daughter
pay
##ment
won
through
pre
their
looking
wal
ll
tal
##ip
wanted
sho
keep
around
##ise
wife
belie
##be
child
thought
bir
##ace
sad
sm
girlfriend
must
sur
gl
##pect
put
##ack
##ity
everything
rel
##row
only
came
##ied
let
##ew
fl
having
bl
##ried
awes
ph
##ually
##ward
##bor
left
str
few
under
believe
em
care
sometim
##ost
sw
nerv
birth
##ha
##oke
ago
awesome
##eam
sin
dis
wish
hus
lol
again
coll
##ure
doing
used
lost
maybe
neigh
anything
luck
res
##ng
ter
##pped
test
where
sometimes
plan
thats
excited
told
##band
birthday
once
food
husband
act
call
ok
##age
##ance
guy
come
##ious
neighbor
##ember
makes
since
show
cat
ups
##vor
tw
##cid
ad
colle
high
##ave
bought
##pl
##get
glad
terri
grad
pers
many
nervous
remember
##az
##pt
##by
upset
say
tell
grand
tomor
person
alone
##ner
done
pu
such
tomorrow
##ash
gi
lea
those
hate
pro
trying
vac
##ations
##fu
##oud
supp
coming
##cked
look
wasn
boy
cle
sist
class
favor
happened
same
trip
college
##ab
fo
mar
soon
party
##int
##orm
parents
##ather
said
##ro
seem
stay
surpr
prob
amaz
another
bit
##ach
finally
real
super
place
live
cool
##ves
prom
sit
turn
##cer
passed
game
##ater
##able
fi
knew
favorite
dad
la
vacation
##ence
##eak
everyone
two
##ook
##ath
expect
started
##view
working
here
##most
##oth
##par
##ork
almost
win
##00
baby
##mer
##side
##ang
buy
##ult
##fully
cont
##der
##pen
ear
underst
##each
eat
rest
times
sister
hit
##ason
most
clean
store
mor
cra
wr
months
meet
hur
understand
bus
own
interview
##act
##joy
young
amazing
##ised
sto
waiting
enjoy
room
##leep
trust
gave
##ont
##ump
att
weeks
guess
forward
##ase
id
taking
morning
bo
died
vis
without
scary
proud
po
##ten
per
least
run
order
pa
couldn
##ately
give
##hip
##ever
##so
sick
ann
##ug
##ball
tried
prepar
##gether
together
##unch
ate
spe
##ned
##otion
nothing
diff
##essed
moved
##port
haven
sum
##ect
broke
mean
conf
cow
##ple
haha
terrible
quite
might
enough
stuff
hor
actually
forg
summer
##cial
el
sleep
exam
sl
unt
also
movie
heard
##osed
fu
watching
##hood
grandm
##ud
gradu
##vers
until
whole
memor
front
##ition
cut
visit
past
bor
sk
compan
##ange
walking
hour
##ets
##ier
worried
stud
thanks
wo
##ord
boyfriend
idea
hopefully
move
din
talk
##ken
swe
thinking
cowork
leave
##oc
##na
world
okay
ap
sec
forgot
##ctor
def
lear
late
##ire
ended
door
shocked
##gry
worked
outside
te
##cks
wonder
ton
itagent
des
company
mine
ret
##izz
dinner
yet
date
##sagent
afra
##rat
doesn
pizz
compl
afraid
close
accid
mother
ra
tick
seen
phone
else
##rew
cant
##rea
these
##ably
##gn
dont
bar
pick
wrong
cong
##fort
asked
impr
needed
pizza
heal
##ict
playing
team
foot
town
couple
hu
far
pres
driving
probably
which
promotion
hurt
open
making
accident
congrat
##ph
realiz
prepared
head
alrea
already
deal
##bl
inv
##pping
decid
pos
eas
didnt
defin
drive
spend
sn
min
inst
break
##our
true
memories
use
hand
##uring
##ink
decided
##fied
##zy
ran
anyone
sweet
annoy
confid
definit
##wh
gift
meagent
##ap
##iting
##ions
gross
horri
##aur
##ond
import
definitely
##ience
doctor
seeing
talking
surprised
boss
emb
restaur
important
restaurant
##ary
##itch
10
both
brought
bed
exper
met
ext
seems
embar
es
ins
angry
gets
##ject
##qu
dogs
crazy
road
situ
apart
##ush
during
gam
##unt
heart
each
hon
##ired
##cially
##anc
study
thankful
called
##ank
##illed
married
##gr
##owing
bring
lucky
fix
card
count
##com
##als
##up
##lem
fell
dec
tonight
health
##oop
gone
##ren
##are
20
ah
##ered
tot
ser
stop
yourself
looked
check
##ax
gon
hoping
pet
##lled
cam
change
reason
usually
ev
##og
##ars
pack
##aster
fast
sat
##ount
relax
supposed
differ
problem
teach
##ys
meeting
eating
##ding
##ia
##ans
imag
happens
stole
loved
wouldn
park
gonna
##iet
surprise
##ail
fine
coworker
football
##cess
##iness
embarr
##bo
hours
minut
fall
water
bill
tough
manag
watched
expecting
free
##ept
appl
##room
situation
dep
##cept
concer
grandmother
horrible
##ppy
final
pol
train
beach
##ased
##amed
agree
##ird
starting
relations
##ons
childhood
##oint
relationship
del
ask
paid
rid
ordered
lon
pict
##more
##fect
huge
father
kept
rain
##nday
anx
children
city
poop
##iday
anim
season
mov
interest
mind
pain
dro
living
anymore
turned
later
##ither
ho
##ert
##rist
confident
near
news
moving
face
pregn
##ile
ent
espe
guys
imagine
embarrass
sucks
##ished
##air
roll
cour
remind
studied
especially
tv
isn
law
wonderful
fut
lately
side
##ark
##enc
cur
ir
appre
caught
##vious
##les
##ures
rece
spent
##ude
complet
storm
scr
result
full
awful
cake
##app
exciting
##dd
sing
walked
walk
sent
##ey
worst
games
bas
vide
##br
##atter
##ower
goes
##unk
aff
totally
char
##ens
sem
apartment
fail
different
med
##gg
##ible
return
##ling
faith
christ
experience
##iv
##where
hom
less
lunch
inc
movies
future
mid
##ness
##ester
early
either
stor
neighbors
word
truck
wind
worth
cook
hang
phot
partner
mus
##lf
##right
present
hot
light
##mas
beh
often
##ger
##ical
fight
list
##ants
exact
jeal
##form
jealous
##tery
disapp
younger
instead
threw
los
##ivers
##ane
stre
christmas
pri
##itive
mess
shopping
afford
ash
congratul
lonely
math
yard
##erg
##urch
running
##fortun
annoying
small
ind
feels
weight
lottery
entire
set
##ouble
weird
special
##ider
unfortun
project
point
raise
ty
puppy
semester
##ny
doll
ple
##line
worry
comm
pregnant
neph
expen
adv
country
nephew
stand
business
##ense
##erve
tra
dream
coo
dayagent
book
bunch
fly
wed
##ustr
second
honest
behind
##med
three
comes
cert
appreci
congratulations
god
loc
mail
applied
##ying
helped
paying
graduated
##co
couldnt
concert
##ction
diffic
expens
lau
bro
wall
##not
lose
box
ashamed
land
ride
##if
##iece
extra
exactly
wom
quick
window
##ign
##ffic
ticket
cal
##ital
wear
une
half
dist
realized
difficult
##ib
stress
easy
jump
pants
worse
works
street
##ym
hair
iss
cannot
camp
video
##ffe
##ates
moment
state
plans
##ipped
busy
##led
dent
mil
online
##ues
##ined
gotten
cheated
##ived
frustr
hum
##irt
accidentally
mist
##oup
##llow
minutes
cous
##een
coffe
clos
pictures
cousin
chang
smell
grade
hos
keeps
sitting
##ugg
serious
manager
music
expensive
bath
##ney
##ming
inside
##ric
eng
accept
dropped
self
born
traffic
##ted
drink
luckily
anxious
hosp
##ention
studying
police
lad
treat
others
girls
positive
results
cor
wedding
laugh
poss
takes
trouble
##ics
cons
planned
##oor
forever
##wards
planning
##rit
pract
envious
fig
played
disg
coffee
bea
ey
##sh
##cel
guil
quiet
##ploy
leaving
earl
##red
lied
prop
acr
neighborhood
hold
sim
##dle
event
earlier
dead
red
rep
groc
support
certain
grocery
dang
gen
meal
matter
##io
ones
cloth
smart
dark
##cle
step
lots
position
15
cred
roller
across
cand
##ings
##iced
cute
local
100
bum
swim
pooped
area
##pected
course
beaut
read
worker
##ically
loud
woke
##ian
safe
spr
dev
turns
grandma
air
war
##bed
star
office
fair
looks
##body
single
credit
weather
short
trave
trash
grate
perfect
embarrassed
learn
completely
middle
bathroom
cry
tur
ass
older
tickets
interesting
curr
##bs
chance
hospital
clothes
##ior
forget
type
disgust
grateful
##ual
suc
impressed
gym
##ope
timeagent
cost
learned
listen
bur
case
name
compet
comput
appro
unex
beauti
ele
ru
bag
grow
employ
resp
catch
top
everyday
##ma
##ones
##ele
weekagent
##ointed
received
smash
guilty
##du
cancer
build
unexpected
pot
ste
beautiful
si
##bt
##urance
borrow
broken
throw
cru
poor
wallet
pea
crash
due
ice
##mate
liked
missed
secr
realize
hun
yell
friday
offered
starts
irrit
30
##less
##ced
save
telling
disappointed
##ee
brand
cover
aww
funny
woman
peace
pool
##cus
##ime
ant
diet
taken
lived
sub
sever
cho
coworkers
computer
##iver
along
wants
congrats
beat
disney
lady
age
finished
unfortunately
kitch
rug
##ike
coaster
accom
quickly
norm
##sel
knows
group
kitchen
tired
##rect
abs
band
finan
shoes
insurance
aunt
jo
##ative
sell
pulled
seemed
scratch
gas
ill
##ps
sun
ref
##olut
##olog
helping
##ress
##outh
##ors
monday
expected
line
impress
cup
##sw
##ental
##vel
arri
given
sy
##ities
anyway
bud
accompl
bank
cash
##ient
##iving
training
##book
leg
stuck
crush
frustrating
num
##ial
##eless
parking
animals
##ru
floor
trusted
teacher
photos
rand
##stal
##ishing
ground
saving
missing
stopped
gener
tast
nightagent
terrified
failed
dest
opt
##ged
##gic
##tle
##pid
ther
steal
sunday
col
offer
cats
add
slow
healthy
random
song
##ich
##rious
##ular
growing
relaxing
dollars
camping
absolut
hol
sal
##urs
black
social
##ured
deg
kinda
phys
bills
power
##esagent
##cking
50
##gery
##man
asking
todayagent
awh
contr
cooking
bother
ugh
##ese
lives
plac
univers
perform
invited
animal
reminded
##use
amount
reg
church
become
shouldn
cheating
surgery
stayed
rough
pray
nostal
spilled
giving
success
mot
##lies
##eaking
repl
loan
intern
absolutely
piece
sort
comfort
needs
showed
progr
dra
pat
rent
workagent
chick
publ
changed
av
serv
##ility
##ize
emotion
cleaning
yep
##gan
whenever
wanting
drunk
snake
##ket
dress
riding
dish
gh
##lt
helps
holiday
control
stepped
cruise
##selves
cele
kick
##rem
cancel
chea
cars
yearagent
acc
cream
pull
roommate
##umped
celebr
fit
##vy
##ising
##ustom
aren
deliver
gar
##ove
talked
promised
candy
##uly
##over
answ
noise
##istic
appreciate
fan
##akes
##ida
##ication
themagent
thankfully
attention
dam
noticed
##aus
##icip
hopeful
stupid
saying
secret
degree
lar
##eed
##time
##bies
##ouse
item
saved
parent
flor
sisters
classes
base
tour
##ech
lawn
spending
losing
florida
rob
##father
trump
ball
speech
problems
kill
##ald
##gin
##ified
coun
driver
##ces
##ouch
##oted
##ized
returned
bon
##reed
##ises
##ision
tripped
grandfather
enjoyed
issues
mis
##bit
shop
lif
quit
brothers
strang
furious
##airs
piss
##od
##esh
speak
finish
longer
supplies
hurric
university
lit
rude
send
##che
sudd
daughters
cheat
##intend
sudden
nintend
opp
tor
##ored
inf
##key
##ili
fixed
pleased
mistake
ghost
bonus
nintendo
vom
##ries
choc
trans
impressive
public
die
wasnt
jobs
##ract
maj
emp
annoyed
presentation
eventually
destr
chocol
ten
##ccer
soccer
resc
contin
satis
indeed
baseball
destroy
200
touch
wer
##to
##oid
fear
##earch
knowing
content
opened
nostalgic
service
large
##con
beha
enter
cross
research
deserve
devast
meant
##used
happening
flight
strugg
switch
shows
clear
cleaned
ahead
current
val
##mon
qual
contest
complain
accepted
competition
syst
awhile
bow
cause
caus
na
sign
shirt
himagent
however
quest
paper
skill
gard
##ks
expl
##iety
story
number
fing
##ado
##antly
using
##itten
weekendagent
putting
adop
fire
hahaha
extrem
scream
honestly
figure
choice
sense
##ub
hey
blood
adm
prof
easier
package
financial
major
system
pets
##oon
shame
kno
death
strange
buying
attend
speed
sleeping
graduate
buddy
cheap
bat
nast
purch
sand
stink
##icious
bros
schoolagent
attack
respons
pissed
empty
joy
wood
##ters
everywhere
apply
##ances
##ency
crashed
18
ben
eag
##ments
##pet
##ze
alright
##lloween
hous
wre
##ror
##uts
babies
bird
winning
teen
several
cried
custom
dating
fil
##fying
##mb
##pa
thri
halloween
##eld
sha
gro
pee
amazed
sentim
words
mill
nerve
pur
##land
##ote
##ots
truly
nowagent
dogagent
strong
means
embarrassing
hurricane
nasty
fart
mc
outagent
##ault
##ement
picked
stressful
possible
chocolate
garden
lay
##riage
arm
follow
learning
faithful
flying
chicken
ach
fault
tree
##yal
##ining
hadn
loyal
##unity
badly
cond
deep
key
cheese
annivers
minute
cookies
miles
ive
ob
##old
##work
##ering
##oneagent
##arm
##ops
himself
##aged
appoint
graduation
anxiety
proper
ca
cart
four
killed
##lo
arg
relie
contact
##ancy
##fer
##don
winter
swimming
irritated
items
torn
extremely
12
filled
nope
rather
##cc
##inking
beer
lic
alive
goodness
fresh
spider
score
tax
##unted
loss
satisfied
post
##ta
##ix
stick
adult
##coming
consider
hungry
anniversary
##nam
sold
stra
herself
myselfagent
smo
glass
delicious
internet
stinks
appointment
low
pound
towards
hav
whatever
themselves
hearing
wont
exams
picture
ruined
lead
##hh
##mber
debt
talent
staying
visiting
barely
invest
facebook
photo
distance
eyes
weren
grocer
det
occ
##ives
haunted
##its
share
##ade
bug
blue
suppose
packed
managed
disgusting
anticip
##ging
##imistic
gold
##ama
alb
asleep
careful
against
text
wearing
normal
comfortable
sentimental
##donald
egg
mort
##te
##oun
##ster
fort
loves
##ession
carpet
##ilar
spot
couch
checked
issue
building
achie
groceries
album
cre
grew
##ef
feed
refu
happyagent
cold
emerg
homeless
certainly
accomplish
stranger
eff
##come
##ened
##ory
inform
##amp
notice
report
schol
##olved
student
dooragent
tex
heartb
decent
basement
mcdonald
aut
ign
main
##ront
##erc
stom
feet
badagent
fired
art
drinking
finding
##ptop
focus
laptop
sky
reminds
human
places
burn
bike
vol
thatagent
##irty
scare
optimistic
devastated
40
niece
squ
ya
toys
drug
marriage
promoted
pair
medical
effort
jer
##iest
toil
rock
drop
pays
honor
emotional
pop
push
##ienc
sched
const
##arship
dollar
avoid
gun
##sy
begin
##reen
##pper
track
fact
##umb
flow
flood
body
dentist
yelled
color
scholarship
hi
nic
##gest
##ww
##lew
##chool
heragent
exerc
grown
sport
closed
shouldnt
apolog
confidence
experienc
decision
court
approved
25
fat
mall
##ressed
##ikes
shel
reading
upcoming
organ
manage
divor
award
afterwards
feelings
drivers
process
handle
account
stomach
boo
kiss
note
chat
hasn
table
calling
shower
gifts
cooked
bummer
travel
fortun
toilet
bright
##ued
uncle
recover
students
drove
jumped
danger
disgusted
dou
hea
mouth
race
##ube
##rim
allow
##ains
lebr
##ument
stressed
says
memory
homeagent
hanging
seriously
customer
lebron
da
men
wake
##itude
somewhere
##ices
jobagent
nerves
tournam
emergency
nat
wra
##fl
upagent
became
unf
convers
yearsagent
plane
gives
board
hands
grossed
satur
depressed
fingers
eagles
match
om
vet
##oof
station
cance
requ
exp
anywhere
##agn
respect
foll
turning
replace
sandw
license
16
bot
sna
tip
##gue
##mm
##let
##yard
##ator
##orn
sol
##ended
lie
betw
career
fiance
mostly
prepare
desp
spring
burger
##check
destroyed
following
sandwich
fish
york
##nect
##den
##cy
##asing
stol
spo
dem
clim
level
paycheck
terrifying
grades
receive
incred
##ibly
elect
program
suddenly
million
flowers
between
stolen
pan
tem
##ai
##enty
##acks
opport
saturday
er
kitten
rush
##erved
##eth
inj
likes
goal
##though
although
##astic
##artment
waited
produ
babys
boat
unfortunate
correct
eye
six
arrived
dirty
mount
rat
##de
##cul
##ift
gosh
within
pride
caragent
diagn
##roken
insp
##unte
basket
lights
motiv
heartbroken
volunte
13
messed
pig
##ky
bey
reun
alot
gotta
oldest
uns
letting
trusting
horror
charge
books
bummed
spray
tornado
creep
dumb
ow
rac
##kward
##owd
reward
workers
noises
offagent
##bleagent
involved
calm
approach
therap
south
taught
##leagent
##iders
##ched
neg
regr
backyard
awkward
moms
moments
doesnt
surv
visited
robbed
vomited
rescue
dangerous
omg
babysit
et
ed
fed
hy
lake
laz
poke
tear
##fast
##giving
##edagent
##asy
##idge
shot
##icle
##ilt
offic
awayagent
bull
biggest
grandpar
thanksgiving
landl
wreck
refund
shelter
doubt
fant
fright
hated
##eric
##eaked
shar
americ
##ained
##itted
keys
crowd
keeping
blast
desk
mistakes
crying
randomly
performance
liter
tournament
pokemon
landlord
fishing
jud
nurs
ring
##oin
##oat
carry
wouldnt
yesterdayagent
blame
prov
field
boring
brings
advice
currently
coasters
answer
bowl
skills
nail
uh
##wor
##els
supr
imp
##cif
passing
twice
personal
stoked
specif
slipped
breakfast
201
depend
calcul
purchased
farted
achieve
cancelled
beyond
etc
lazy
five
ripped
##how
##ler
##vis
##yle
toy
##ights
caring
breaking
##ational
spouse
harder
perio
deserved
closer
simple
addict
period
14
cas
gri
odd
roof
toe
##ison
abused
review
freaked
except
backagent
hardly
shock
remembered
closet
stealing
applying
houseagent
havent
burned
despite
cir
dude
furn
hide
mood
tire
##bly
##ateagent
friendagent
brown
conv
daysagent
blo
attitude
headed
depress
concerned
cashier
behav
constantly
000
19
rot
yup
##gar
##lling
##ety
yout
##ides
hell
plus
##iling
evening
drank
shoot
acting
hitting
easily
doctors
laughing
similar
normally
successful
celebrate
literally
creat
je
tin
tas
third
##ins
tooth
##ites
##iture
butt
fridge
##ulous
spl
partic
confront
lesson
smelled
delivery
continue
pounds
grandparents
##ointing
furniture
tend
##noon
##kers
heat
space
spiders
immed
direct
afternoon
blamed
invite
camer
polit
complete
laughed
##ology
teenag
conversation
basketball
particular
immedi
dance
flew
mower
sen
##xic
##eng
##ether
amuse
goodagent
veg
becom
##ume
wif
flat
graduating
tech
##ancing
##board
disappointing
##coaster
practice
rollercoaster
physics
entered
information
senior
amusement
500
cell
##aly
##mates
##ule
##cing
todd
white
##ident
##icing
##ushing
unable
relate
craw
teeth
picking
subject
crushed
progress
patient
question
product
therapy
regret
behavior
youtube
90
bal
hoc
jack
none
##mat
##lish
##uum
##ipe
whether
ath
##thy
somehow
##ilities
peed
##igned
awe
friendsagent
letter
##ensive
##ergy
pleas
please
##ibility
milk
repair
covered
adopted
straight
mcdonalds
jerk
divorce
hockey
yikes
##tain
##eral
##ayed
prin
nose
nobody
grass
plant
unless
helpful
believed
bless
sometime
attic
incl
engine
listening
borrowed
drag
woods
purse
reunion
calculus
immediately
11
crim
har
pumped
##aw
##ca
##cake
##overs
##back
##uth
mexic
press
saf
throwing
belong
prefer
remembering
vacuum
nearly
steps
selling
garage
speeding
peeved
bugs
ep
edu
fre
hid
##sion
##under
##bage
##que
##oul
whe
shut
above
##iculous
affect
uni
ways
againagent
market
eaten
owner
teaching
##ific
employee
motor
lifeagent
caused
condition
relief
mortified
athlet
dump
mater
oil
row
##he
##here
##mart
wasted
##ays
onto
alarm
whats
freak
##icy
nowhere
sale
loose
nights
parked
appar
bigger
email
supervis
improve
women
engaged
english
perfectly
accomplished
regular
dishes
opportunity
educ
ace
ditch
hes
lane
mat
mix
til
##bing
##kely
wash
##ames
##urity
##ested
plenty
veh
held
recipe
kinderg
drives
enjoying
fully
raining
dreams
holding
peaceful
garbage
miser
explain
sports
diagnosed
apparently
supervisor
breat
rad
till
##ino
haw
##otect
soft
stage
liv
repe
chall
happier
bread
yours
thrones
##haps
boys
youngest
perhaps
skin
media
##ival
stories
typ
##cover
landed
warm
taste
holidays
nap
##night
##hol
##uch
##care
##ients
##ines
##erly
##atives
waste
##sters
##stairs
shad
neck
alco
known
nightm
stub
ending
flies
attract
ski
security
decide
department
interested
basically
frustrated
practicing
damage
profession
texas
skyd
exercise
tiny
alcohol
ded
hist
hired
jail
lying
net
por
pie
sea
wel
##cri
##pack
##ker
##erm
shining
protect
trau
##arten
##ung
scored
rode
blessed
blank
swear
higher
laid
lakers
retire
snacks
charac
price
irritating
sales
film
thrilled
drugs
est
econ
signed
##ses
##res
##ero
##ores
ham
shift
heights
sear
locked
chem
tool
grab
everytime
##rage
disc
tests
earth
wrote
##bling
snow
pregnancy
airport
canceled
knocked
argument
occas
fantastic
vegas
miserable
hawai
econom
bun
cop
cab
dumped
jun
##ination
memb
##chel
loving
exce
##iled
backed
spell
agreed
sons
discover
sweat
##bles
bedroom
series
ridiculous
appreh
priv
drinks
practiced
struggling
questions
albums
beginning
history
members
gre
gate
tre
wet
doagent
goals
##amas
aloneagent
seat
bachel
science
uncom
friendship
guard
funeral
walmart
rele
giant
hurting
preparing
slam
raised
driveway
cards
traveling
financially
praying
replac
followed
property
vehicle
gig
mass
ris
vo
##ah
##ped
tho
##orting
##ett
##ute
steak
##tern
bra
enc
lovely
parts
##izing
stray
league
soonagent
interviews
hund
opening
trained
charged
figured
yelling
loaned
porch
den
fence
fancy
hob
pun
soup
hall
##chan
##cket
##iring
screen
cheer
earn
diedagent
sickagent
president
##what
##whel
##ences
homes
hotel
humili
corner
potty
draw
crossed
techn
skydiving
hundred
bes
double
lim
master
mental
pit
##da
thurs
##etch
##omb
meat
mechan
reach
##ural
upon
somebody
champ
ohh
moneyagent
plays
acted
hurts
checking
##box
join
cheesecake
wracking
creepy
specific
convin
21
bri
kit
punch
ren
ram
sel
vase
##ne
##ogn
##inis
##ari
likely
##ires
suff
sugar
lock
france
##icated
spoke
##alled
somed
arr
mach
reminis
underw
##plant
terribleagent
instru
embarass
arrive
general
##iliar
screaming
hiking
wifeagent
hawaii
bachelor
thursday
cent
las
nor
wit
wild
##sing
##rop
##lept
somewhat
load
truth
##inder
anytime
span
speaking
cock
energy
ends
falling
advant
appreciative
staring
fairly
awww
admit
shape
smooth
heavy
kindergarten
apprehensive
cops
eld
fill
nuts
oce
rely
size
zoo
##gra
##light
##bers
##atic
sooo
isnt
neat
sus
##ury
chan
daycare
cared
wellagent
everybody
aggra
overall
waitagent
waitress
guit
intro
recom
sounded
##cious
##ages
leftovers
term
crap
relaxed
application
videos
prize
community
advance
appreciated
##shi
element
illness
kicked
adopt
obvious
schedule
volunteered
pressure
aggrav
cu
dut
##geagent
##my
##ship
##ring
##boy
fore
form
fema
sept
trail
club
dire
trick
recent
drama
parcel
flu
blind
marry
promise
dealing
##bled
situations
total
storms
quality
electric
pigs
nursing
select
guitar
recomm
female
september
60
cable
dancing
lbs
mult
psy
##fish
##la
##car
##oes
##kn
habit
allagent
cher
spit
overwhel
dece
buff
built
scaredagent
wantedagent
sadagent
relatives
fond
annual
decor
medic
##gging
boxes
severe
scratched
accomplishment
experienced
america
motorcy
occasion
junior
excell
uncomfort
aug
dry
eur
gather
ouch
rab
soul
tinder
##fc
##gers
##nes
##uition
##uary
##ceagent
bell
beard
##lect
stairs
plate
homework
unkn
previous
phones
##born
collea
highway
expectations
hurry
stock
##quit
bringing
petagent
nearby
message
ruin
##rupt
regist
value
determ
injured
unsure
judge
casino
education
professional
search
advantage
80
aud
ban
bust
cord
non
und
yuck
##go
bee
soci
soda
stri
style
##ionate
choo
recogn
kinds
tail
awesom
mario
writing
attach
morningagent
presents
difference
##cessary
airpl
starved
employed
secrets
thereagent
physical
counting
knock
snakes
negative
livid
braves
someday
ocean
elementary
300
bi
goo
hill
mer
ment
mos
mile
ol
tall
wine
##lace
##cut
##wise
##zz
thunder
##ening
##inge
heck
betr
envy
devel
record
compar
payment
calls
mark
marath
understanding
understandable
horse
bored
##phone
fighting
committed
songs
sending
qualified
nah
benef
anticipating
provide
##worthy
becoming
toddler
printer
challen
necklace
machine
motorcycle
excellent
uncomfortable
develop
ec
mow
rare
wishing
##nel
##school
##veagent
##real
##door
##uit
##iot
inse
shes
goagent
suit
aband
abuse
##alk
chip
hereagent
trou
trad
happiness
bucks
player
chef
flag
foods
highschool
upsetting
tripagent
restroom
interviewagent
meaning
hole
stores
supportive
1000
travelling
respond
##eez
##ode
2000
purp
taxes
eggs
ignored
pushed
schedul
incredible
frightened
task
teenager
##ength
spelling
abandon
breed
ce
dying
fries
mal
mention
ori
pen
rout
##ially
##bow
shark
##adays
golf
ang
rear
workout
expr
nowadays
##ership
overse
diap
mac
##ffle
tricks
roach
##empt
activ
write
headach
painting
painful
fights
##iforn
californ
closing
corn
turtle
silly
tasted
slowly
responsible
joyful
fortunate
nature
bott
bottle
includ
attractive
underwear
europe
mosquit
diapers
california
dar
equ
jour
mir
op
oven
tes
##ials
##yagent
##walk
##ina
##inated
##att
washing
bear
shake
suck
sex
madagent
madden
kidagent
otherwise
unb
unha
cla
connect
betteragent
apple
grandpa
tomorrowagent
##ionship
##onsider
uneasy
distract
cousins
physically
talented
nicer
daily
incredibly
epis
humiliated
elderly
unknown
society
airplane
marathon
overseas
batter
dear
fur
lend
rich
sil
tar
vi
##ees
##mark
##sed
thous
##oring
##ley
member
chasing
hopes
donuts
pepper
veget
overcome
schools
muchagent
shoe
sink
##ples
pupp
puked
classic
packing
singing
common
assign
salad
delivered
purchase
texting
allowed
##flix
depression
athletic
netflix
retirement
multip
tesla
thousand
22
gest
host
mouse
tac
##ton
##bby
itself
##etown
##ooked
##lex
isol
##ceed
reject
allerg
anybody
spir
clown
diving
thoughts
related
trustworthy
bond
forgive
fund
skating
talks
teachers
rides
failing
hometown
inconsider
commun
assum
bags
savings
bothers
answers
damn
rescued
laying
properly
apologize
management
expired
stubbed
rabbit
awesomeagent
inconsiderate
aver
cap
duck
lord
tight
yum
##aagent
##ply
##pers
##ana
foragent
doc
ability
chased
mold
lotagent
hardagent
weekends
monsters
mission
strength
birthdayagent
ador
collegeagent
poison
pocket
insane
basic
standing
distr
changing
employer
internship
county
crossing
responsibility
birds
cav
colorado
organized
demand
mountains
shooting
split
radio
encou
direction
unhappy
puppies
average
2nd
35
400
bite
junk
ket
national
round
rip
##gia
##val
##vision
inagent
##idered
stat
react
butter
abro
knee
baked
willing
##ulf
##osit
screw
scold
debit
conc
finals
finances
whoa
familiar
kidsagent
particip
smoke
fla
collect
trips
vacationagent
owned
ordering
wondering
deserv
farm
deposit
paint
jumping
subm
refused
budget
litter
oppos
profess
attacked
material
ditched
welcome
##ropri
obviously
duty
selected
##bowl
distraught
abroad
dirt
fer
fool
fried
gear
nur
pile
tele
ufc
vers
wound
##gu
##nis
##list
##uct
tow
toagent
neither
wore
outf
##anted
mod
spare
unit
unlo
client
famil
pretend
dread
throat
ourselves
downagent
croat
smile
blow
terribly
surprising
supermark
labor
crack
announ
incre
prior
wednes
windows
possibly
considered
hung
joined
numbers
avail
emotions
tennis
clearly
houses
smoking
rewarding
approached
suprising
crawling
frequ
mechanic
cherish
buffet
medicine
multiple
croatia
wednesday
bang
faster
ju
oct
uber
##ium
##bul
##keagent
##arter
ingr
infect
##ism
lift
##ther
sucked
sushi
##illing
thinks
scra
coach
hardest
thrown
shocking
dads
interviewed
roommates
ticked
holy
##gged
storeagent
simply
candid
warning
shorts
tastes
pulling
transfer
struggled
bowling
considering
anticipation
officer
cameras
crime
risk
championship
arrested
recommend
december
flags
purpose
scheduled
express
adorable
families
24
800
dise
king
lan
poo
pant
path
pink
rom
range
sau
sens
##aper
##ss
##vir
##ented
##ette
##storm
oneagent
##ender
##oph
outdoor
##urning
chose
exten
scen
usual
scares
compass
couples
payday
precious
##acking
lets
flash
blown
disaster
nervousagent
favorites
##roach
written
heading
sidewalk
lessons
worrying
nephews
##ification
catching
bothering
finger
screamed
squid
mountain
jeans
dragon
breath
nightmar
hobby
instructor
introdu
august
mentally
origin
deserves
bout
bomb
cig
ge
green
hire
lang
mma
slept
tent
tea
tues
umb
zero
##ners
##nment
##ians
##pons
##kery
##ential
##itary
##oms
inn
##static
##rel
socks
shy
shots
lies
prank
loans
chair
##antic
bakery
granted
##ober
magic
##istry
dressed
##ission
downstairs
courage
chew
throughout
relative
husky
leaves
superbowl
cowboy
slight
doors
retired
mothers
raffle
impro
##ivid
prices
##ify
treats
proposed
unexpectedly
vomit
mortg
apologized
booked
chatting
natural
inspired
circus
blessing
chemistry
voice
psych
ecstatic
supermarket
october
langu
tuesday
cowboys
aid
dm
ef
fest
hmm
jap
pin
pic
panc
vie
wan
##was
##ench
##onse
wasp
ship
##vernment
abilities
##alu
friendly
##une
##uses
backpack
recital
##acy
crit
bitter
huh
reasons
evalu
rained
indep
lotteryagent
haircut
treated
propos
matters
election
response
potat
hunting
killing
infl
causing
unfair
climbing
motivated
survived
edge
mexican
hesit
characters
attached
troubles
claim
##ropriate
television
available
innoc
effect
japan
view
8th
binge
fb
joke
lung
nest
names
rul
ult
##gy
##gle
##hand
##ipping
##aters
inch
began
##rell
forth
##least
atleast
ank
##ureagent
ali
altern
aboutagent
chest
bake
##osis
donate
##usive
peopleagent
envir
diaper
arent
complex
players
reality
hits
barking
dealership
##blings
events
semi
commit
laund
ladies
siblings
colors
addition
battle
depressing
engineering
mexico
safely
traumat
economy
slammed
replaced
besides
limit
ramen
spanish
determined
choose
abandoned
isolated
cavs
ferr
mortgage
dmv
independ
17
45
bm
fal
fulf
gor
lent
pump
pics
rar
san
ven
yay
##nessed
##uing
##uable
##cles
##ife
##off
##oons
##kin
tom
##ony
##onment
shatter
sugg
canad
areas
chin
##iceagent
orland
waking
uses
deer
unl
afterward
intense
familyagent
role
drown
remain
aced
access
thoughtful
testagent
excitedagent
actual
showing
adj
##place
marks
file
lap
scaryagent
tons
##phones
memoriesagent
##ception
relationships
presented
advent
changes
treatment
assist
succeed
disneyland
regard
struggle
valuable
eggplant
flooded
temper
approaching
survive
achievement
rollercoasters
balcon
private
witnessed
cockroach
bearded
tradition
journey
opposite
professor
wanna
innocent
environment
bmw
orlando
1agent
eww
hike
ip
jog
mut
oo
port
pitch
pian
tuition
##bu
toward
##ats
force
onions
steam
section
##aud
##essive
ohhh
##iev
##ileagent
scam
ord
thingagent
coast
lotto
awa
##ums
happenagent
thru
sadly
stroke
agoagent
highly
highest
togetheragent
stuffed
summeragent
sketch
##ground
tonightagent
irked
income
midnight
location
simpl
turkey
subway
legs
generation
naked
signific
paperwork
bench
object
relieved
freshman
invested
rotten
camera
balance
blanket
overwhelming
colleague
compared
challenge
gesture
taco
keto
nurse
influ
rules
laundry
suggest
cin
fake
hood
july
kar
lu
lack
lines
wars
##ron
thick
theater
##itor
##vember
##step
##ids
##iment
necessary
worries
febr
repr
alley
baking
november
brac
brag
brave
grind
theme
##ilot
spac
kidd
clot
##raph
male
recon
foodagent
sooner
craving
returning
healing
serving
served
evil
##ograph
parks
delayed
irma
completed
storage
certification
assume
ghosts
transport
army
##load
auto
popular
exercising
required
volunteer
block
softball
types
pieces
tools
cabin
renew
insec
including
target
allergic
nightmares
cigar
language
balcony
awaiting
february
70
boun
fol
gut
gain
jugg
lab
mi
ole
yog
##aking
##ns
##mp
##mission
##custom
##oll
##itis
youth
##ows
##ades
reception
upgr
chances
chores
hers
exh
bah
yearbook
spa
greatagent
dement
imm
leash
finishing
##umber
quiz
##acle
##ization
appet
girlfriends
tells
personally
supporting
dadagent
guessing
idiot
runs
skunk
forgotten
accidents
##icted
gaming
##anceagent
##enced
##ibilities
military
shortly
smashed
reflect
tasty
theres
placed
nostalgia
patience
damaged
counsel
arms
cookiesagent
posted
leading
ignore
experiences
fortunately
heaven
american
nailed
addiction
brownies
directions
political
pleasant
dumpster
shady
grabbed
discovered
kitty
benefits
opin
disease
umbrell
adjust
simpler
##customer
dementia
bound
based
harm
kore
mic
ps
sam
woo
##ts
##yer
##ole
##por
##etic
whom
##uten
##eliness
##rib
webs
reached
suv
##ctic
chain
happend
newborn
unus
clue
parties
thingsagent
funagent
##aging
excuse
flirt
blowing
nervesagent
acts
##ability
papers
sla
boyfriends
teh
complicated
hubby
headphones
handed
gifted
horribly
gambling
##anced
decl
loneliness
charity
expenses
meals
competitive
employees
grandfathers
straw
haveagent
texted
boost
inspiring
motivation
tears
jacket
##cript
hamster
punish
center
channel
trailer
activities
headache
spirit
model
ingred
hesitant
rarely
piano
sketchy
clothing
bahamas
korean
ast
ble
blew
cage
hug
hilar
ooo
oops
pushing
sight
sore
ut
wings
yan
##ev
##illy
##yy
##oved
tore
##isions
government
##urger
upstairs
workplace
fro
french
##unting
cares
spar
kidding
##raft
##raged
fav
guest
tries
feelingagent
readyagent
dried
prev
discus
reserv
action
actions
##ables
parentsagent
cracked
crappy
slap
skip
##rats
sneak
breaks
restaurants
fixing
decisions
rolls
lunches
cookie
muscle
setting
scratching
awhileagent
bothered
patients
cheaper
counter
lifting
touched
squir
tempt
owe
sharing
crowded
depends
reviews
teenagers
##icycle
regularly
skiing
lakersagent
released
homeschool
convinced
smoothly
thunderstorm
ceiling
episode
assignment
version
frequently
picn
ipad
ingredients
hilarious
23
6th
95
ais
bumped
cakes
kay
nie
ur
ver
wea
wis
yo
##ges
##hen
##hold
##corn
##ih
##oom
##bour
##ware
##anes
##anch
##adill
reaction
feat
separ
##estated
chill
chase
exist
##icate
careless
hoped
ages
vegan
overw
firm
conven
##olf
bestagent
bully
quarter
##ossible
beforehand
sadd
letters
neighbour
anythingagent
adn
classagent
preparation
example
examsagent
ess
esc
settle
seconds
busyagent
##ugged
foreveragent
guilt
repairs
devestated
choices
generally
option
options
infront
continues
navy
responsibilities
thrift
goldfish
maintain
popcorn
niceagent
spoken
panick
babysitter
suprised
impossible
mixed
repeated
nightmare
character
discount
treas
reminisce
aggravating
busted
unbel
distracted
festival
pancreat
evaluation
gorge
reconnect
appetite
opinion
nieces
cope
du
dom
dess
gpa
geez
lower
py
pill
rus
rum
rage
rushing
tun
tatt
uk
##fi
##mo
##made
##round
##ik
##oot
##pting
thor
##erving
##ashing
##ota
##eapp
##uting
##ution
##ille
notes
trag
knife
anymor
##ils
aggr
lease
##uments
startled
##cipl
appear
appartment
gluten
##hab
disl
discipl
active
##ashed
##furi
contract
paj
elses
teams
teamagent
snugg
handful
apartments
serve
childhoodagent
moveagent
laws
medication
lightning
disappear
points
halfway
repay
loudly
listened
potential
stepping
anti
groups
joining
sorts
celebrated
ghosted
attending
shaking
argue
glasses
occur
mainly
recovered
spoiled
climate
hyped
becomes
90s
belongings
wheel
drawing
hundreds
curious
merced
betray
darn
rejected
capable
document
sauce
extension
potatoes
ferrari
chinese
significant
yoga
kayaking
unbeliev
dessert
tattoo
tragic
anymoreagent
cass
dated
ease
ego
gal
gained
iphone
jet
james
kitt
led
mri
mur
oly
patch
rice
site
tuck
##af
##eet
##gun
##nival
##mower
##seagent
##lers
##dog
##cr
##cast
##ock
##zed
##entials
hah
incom
beating
##stand
##ril
##riger
##ending
##term
rehab
prison
chic
trap
troph
freaking
asap
carnival
brain
moon
scor
greatest
surely
overd
overnight
usa
usagent
unem
##iger
lect
max
makeup
root
mont
thoughagent
finds
passion
surround
collection
vacations
daddy
workingagent
understood
understands
bush
##action
amazingagent
roomate
attempt
weeksagent
nothingagent
cutting
companies
sweating
##reaking
openagent
countries
basis
behold
streets
messing
jumps
##ledge
hospice
possibility
beaten
sunny
refriger
placeagent
universal
celebration
celebrating
lawnmower
strangers
werent
behaved
clearance
##mony
admire
wooded
wrecked
refuse
fiancee
err
frightening
shared
impact
harv
##cape
##heart
trauma
embarassed
foreign
google
routine
bottom
participate
outfit
improving
aliens
shattered
picnic
gorgeous
aggressive
olymp
refrigerator
1st
4th
freed
lin
obs
sym
ug
weak
##food
##fun
##eas
##lbs
##ios
##iff
##ok
##zer
##inal
##erence
tomat
##arant
##anoid
##otic
##eable
init
##ided
##iseagent
states
anger
abusive
outcome
rev
##unities
plants
donald
##allow
deck
unc
uncer
unpack
conso
diab
##igs
##igious
fac
paranoid
momma
##ago
accus
cris
aroundagent
childagent
smack
puts
underne
testing
twenty
pup
classmates
partyagent
stays
monthsagent
ideas
hahah
elated
visits
skate
companyagent
horrifying
gameagent
eachother
stops
evid
embarrased
lawyer
futureagent
##iveagent
photograph
messy
individ
standard
mailagent
mailbox
practically
repa
stephen
starving
impression
info
continued
shirts
teenage
customers
considerate
informed
focused
spoil
climb
opportunities
personality
specifically
directly
toddlers
uniform
dedicated
##respons
##etti
punched
north
totaled
searching
viol
athleticagent
screwed
slightly
ankle
alternative
insecure
spagh
##cription
yanke
squirrel
thorough
unemploy
freedom
##function
uncertain
console
underneath
bid
bre
bree
cere
cud
cities
dough
diss
gum
hul
melt
nine
nfl
rate
sour
tit
var
##nels
##me
##rd
##rot
##iable
##ipper
##ping
threat
hamb
whis
beers
##iding
stain
fee
##ional
##ctions
brush
##ands
comed
overs
mum
awoke
intim
intention
pretended
shoulder
monthagent
excite
passes
##ipes
##bean
wished
##cident
##play
classroom
classmate
eats
confir
sleeps
slide
pasta
bars
instantly
installed
sweetest
bosses
healthier
##rency
evicted
fallen
irrespons
##ivity
incor
musical
weights
boxing
england
acceptance
figures
assured
forgetting
burst
##sweet
dishwas
kicking
secretly
ballet
transplant
sticky
avoided
matches
racco
sharp
rotting
tasks
productive
safety
software
repeat
shadow
beside
masters
reminiscing
embarassing
loads
susp
adoption
register
betrayed
announced
pineapp
bittersweet
ultim
canada
repres
kiddos
transportation
declined
mercedes
chicago
diabet
accused
spaghetti
dishwasher
pineapple
64
65
600
austr
cast
civ
dall
eh
east
hip
hint
lat
pity
tut
tie
wolf
##town
##tled
##hor
##suit
##ii
##iant
##ov
##zard
topping
wasagent
youre
##ott
whil
inapp
infuri
beef
ford
onagent
doom
stood
stable
neur
hectic
##ustry
goss
##aming
feb
upd
someones
seek
fruit
exha
happily
happiest
##unken
##icians
##using
anyways
comb
comment
backing
spooked
coin
mug
homemade
dig
##umbled
mag
recall
budd
downtown
interst
belief
flown
flipped
##eaming
disres
resched
twins
puzz
coolagent
firew
##orks
craigs
##cials
retail
healed
drivingagent
realizing
handling
grossagent
horrified
inspect
marriedagent
ahh
asks
smaller
industry
projects
walls
distur
humans
bornagent
deadline
generous
sundays
added
dressing
hurricanes
switching
keyboard
contacted
detail
mainten
jerks
democ
panic
owl
rewarded
2018
grill
hello
pleasantly
wheels
unique
stubborn
dedication
protective
shifts
convince
aggravated
recognize
malfunction
mentioned
mirror
vegetables
hostel
encourage
butterf
transferred
sensitive
independent
cinem
folks
umbrella
reservations
montreal
ceremony
excitement
incorrect
represent
austral
dallas
inappropriate
exhaust
disrespect
fireworks
craigslist
34
3rd
bump
bicycle
cd
cy
cult
cpa
dorm
drew
jan
jury
mich
pc
tank
tires
vent
wise
xbox
yall
zipper
##ale
##fa
##for
##elly
##gie
##house
##son
##lin
##lead
##lif
##cent
toes
##order
##edi
##lliant
##ona
solo
meg
##cha
shed
withagent
##the
outl
goodby
carib
brakes
branch
##anded
##ief
anyoneagent
comic
commer
coy
covers
mud
clu
##race
lean
aware
nightlight
needing
##ista
wayagent
rolled
parrot
function
##perate
bub
removed
##ageagent
passionate
payments
struck
disag
discon
resolved
personagent
prove
##roll
owners
interviewing
conference
cutest
skipped
companion
##ocur
design
pizzas
rap
raw
barista
townagent
metal
insan
affair
charging
meds
pointed
##ifying
stressing
selfish
eyed
swimsuit
spread
warri
costco
burnt
sibling
rented
misunder
miscar
complaining
complained
##paper
loyalty
cafe
golden
achieved
humanity
gunsh
organization
divorced
request
tips
solid
racing
neglect
hype
##aws
hiding
estate
copy
sweaty
trees
technology
brilliant
suffer
suffering
witness
gathering
mosquitos
assumed
dreading
juice
compassionate
introduced
mutual
aisle
essentials
tuna
discipline
murder
photographs
yankees
thoroughly
breast
irresponsible
buddies
caribbean
disconnect
bb
bost
brew
cos
dateagent
eb
fost
ger
gang
kor
lamp
nar
nach
oper
page
pier
pour
punk
session
tagent
tied
van
vir
##eg
##gues
##no
##dom
##cop
##pot
##ask
italy
##arming
##iter
##ete
begging
soa
weed
##ends
lip
##sey
fees
reass
pred
##estyle
chunk
hero
asia
##icles
gra
grump
plumber
##gee
spain
scout
deb
unw
magg
##oli
trim
drunken
belt
driven
smelly
surreal
flip
flush
phase
pharm
swallow
disp
adul
perspect
##ptocur
fold
biting
##pared
wins
earned
craft
boom
slip
skirt
worldagent
okayagent
bark
preschool
deals
snuck
snack
mini
instr
handy
sweetheart
##ogged
grandmothers
policy
rainy
chargers
mailman
humid
smelling
propose
devoted
cryptocur
turbul
elev
cruel
30th
bands
arriving
salary
degre
successfully
draft
services
answered
lifestyle
vomiting
behave
causes
thrill
deeply
adults
##hhh
investig
occup
texts
heartbreaking
conversations
solve
tempor
injury
babysitting
officially
carrying
blocking
199
creative
planted
belonged
washed
typically
seafood
release
hallway
decorated
biology
sharks
macs
further
flavor
increasing
candidate
squidagent
original
psychology
proposal
adventure
objects
influenced
spaces
ps4
website
slapped
favour
repeatedly
russ
unbelievable
bushes
harvard
title
reschedule
inspection
democrats
butterflies
australia
culture
goodbye
korea
maggots
turbulence
cough
hr
hass
honey
hond
named
pi
pal
pac
pors
rural
racking
sake
tag
wrist
##fic
##eem
##eber
##gment
##nies
##hole
##uah
##ieagent
##bra
##zok
##ene
##ature
##lley
##arily
##esome
##etto
##oma
##omy
inher
incident
##rex
forest
##elity
onceagent
web
##char
dod
dove
sta
shred
shrim
##adem
##ams
pros
alge
log
lover
chains
chih
trunk
frog
##ica
##ician
carbs
everagent
lasts
everyoneagent
wave
##umes
whoever
famous
##pelled
##ists
helpagent
ours
monster
thenagent
##ucks
##cile
remained
academ
##berry
chees
crank
##ipment
everythingagent
reliable
strzok
swerve
display
actors
upsetagent
contra
earning
timesagent
cleaner
moreagent
interviewer
pole
percent
##udge
april
##ctorian
rav
raising
minor
escape
##ups
reasonagent
fathers
rainagent
painted
dropping
entit
reminder
failure
cooks
annoyingagent
##fficient
distant
musician
consol
consist
bumper
burden
rub
employment
awwww
dieting
choked
disneywor
##ruction
pulls
transmission
entertain
devastating
switchagent
valedi
hahahaha
bats
eager
arguing
kissing
fortune
snap
panama
bullied
fantasy
judgment
nails
conditioning
blankets
##erole
bungee
volley
channels
overwhelmed
colleagues
tailg
equipment
miracle
battery
assuming
fulfilling
jogging
aston
pyrex
pajamas
antique
casserole
##standing
evidence
individual
repaired
overslept
toppings
whilst
gossip
disrespectful
grumpy
honda
##uahu
shrimp
algebra
chihuahu
cranky
disneyworld
valedictorian
volleyball
28
3agent
5th
cub
doo
dair
greed
hat
hars
jew
kim
lame
lined
mt
mowing
nut
purs
rome
rally
rink
sed
sang
tum
wide
##aa
##aire
##eight
##ls
##ris
##rate
##ration
##cons
##pon
##west
##kill
##zen
##enagent
##inct
##eding
##ndr
ital
##ario
##etime
forced
sober
island
##chi
dos
stumbled
shout
shakes
necess
##vert
height
goin
##irting
##seum
##sequ
worn
##opilot
prote
loveagent
allergy
##anta
exch
##essions
carp
brut
##ateg
spin
scores
greatly
orange
peel
aged
museum
waiter
unne
clogged
consequ
mansion
digest
awake
girlagent
##iesagent
household
##olve
longest
##ffed
recipes
drain
compare
buzz
monkey
queen
quilt
playoff
kindness
remeber
mommy
##agna
appalled
theirs
talents
flirting
phoneagent
upside
procr
##ableagent
##inton
promises
babyagent
stocked
pastor
##ctory
doorstep
neededagent
promotionagent
posit
##aped
10k
decades
checkout
##ansion
freezer
trainer
lonesome
rains
newspaper
curb
receiving
stormed
returns
midterm
presenting
settled
##ibiot
closest
smells
corrupt
burrit
poorly
antsy
antibiot
joh
refuses
syndr
legos
randomagent
salt
dishe
fits
touching
behaving
explore
admin
admitted
attended
wrecking
shaken
taxi
autopilot
efforts
tracking
expansion
motivate
periods
particularly
jackpot
criminal
marketing
mature
skinny
bunny
lasagna
registered
chips
angel
episod
batteries
clowns
funds
ducks
submit
unlocked
announce
infected
romantic
outdoors
scenario
originally
chewed
claimed
effects
false
pumpkin
bracel
incompet
ugly
skateboard
diabetes
infuriating
interstate
commercials
warriors
elevator
hassle
porsche
entitled
dairy
harsh
italian
protein
procrast
33
dim
ew
eve
fans
igu
jits
ls
lateagent
mate
mob
ner
nood
nick
peak
tens
wing
##eason
##gus
##nn
##nuts
##sis
##rr
##ras
##uries
##cl
##iers
##ba
##py
##well
##word
##kagent
##zipped
##inter
##inity
##eragent
##entions
##ators
##ories
##eddy
##lls
##onven
##anny
##ideagent
former
soph
##oooo
weigh
docile
shor
among
##verse
lion
lice
lizard
fears
justice
remor
print
##ications
newest
brit
##usion
##ously
spous
spook
scan
otheragent
vegg
peoples
unzipped
clock
dies
lemon
faceagent
scariest
guide
intru
rightagent
bugging
excuses
interrupt
relive
collap
lostagent
husbandagent
actor
adren
upsets
sits
winagent
##anged
wrest
mornings
perf
sickened
confused
##pleas
slim
slice
grandmas
woken
retake
compliment
preseason
opens
heads
instinct
bedagent
extended
meetingagent
apples
resultsagent
inconven
earlyagent
lands
campus
dented
milest
humble
manageragent
engage
##shine
costs
compete
computers
sunshine
cupagent
generations
destination
address
prayed
accord
trumpagent
balloons
##odel
signs
shameful
eagerly
stronger
cartoon
sticking
debts
investing
reported
organic
correctly
racist
hyper
grie
oddly
creatures
##enges
hidden
matern
improvement
radi
challenges
salesman
esteem
bunnies
greet
gigantic
##ettes
denied
hobbies
brief
soooo
terms
route
assignments
communicate
poisoning
demanded
submitted
surprisingly
candidates
critters
japanese
commitment
traumatic
cockroaches
##loaded
juggle
bleeding
saddened
treasure
pancreatitis
kittens
tucked
rooting
olympic
crisis
breeze
cudd
doughnuts
hamburger
##lifting
miscarriage
foster
german
poured
cryptocurrency
chihuahua
kimchi
unnecessary
jitsu
remorse
intruder
adrenal
00
31
bent
beagent
cents
dat
dust
fri
gall
hook
hunt
haters
hugged
ik
ivy
jar
jam
lou
mart
nes
ot
pace
ripping
tipped
vice
ward
waters
zip
##face
##mit
##mother
##rup
##rete
##ueagent
##bast
##bike
##bucks
##pre
##point
thou
##enger
##inary
##oni
##ara
##aries
wasting
##eady
begg
##utious
##ching
stunk
##ckle
##ckets
ambul
heirl
liqu
reall
worm
##amond
hadagent
outs
notified
timing
sebast
chos
thisagent
frag
frank
fraud
noble
plates
donated
spots
jobless
overagent
enem
enraged
unpleas
managent
diamond
hasnt
##umst
intell
intuition
recru
rocks
##ucky
remote
passenger
prep
religious
blog
phob
phew
sometimesagent
##getic
grandson
pudd
marked
partying
surprises
craz
enjoys
enjoyable
paw
slack
fuel
##udes
worriedagent
diner
dining
secure
teens
desire
bare
wrongagent
spends
install
10th
roadkill
##lements
camper
polite
movieagent
interests
hoard
singleagent
walks
videog
christian
moviesagent
hotdog
christmasagent
messaging
projectagent
trapped
broad
brokeagent
difficulties
picturesagent
enviousagent
figuring
holds
redempt
starbucks
burning
##maid
joking
jokes
illeg
##ruct
colon
performing
performed
patio
chickens
accoun
secretagent
floridaagent
tort
transition
batman
millen
cautious
cartoons
contacting
investment
arts
artist
experienceagent
25th
unfold
respectful
solved
sandwiches
diagnosis
inspir
tearing
bullet
nursed
grilled
browns
blocked
hellp
created
jeep
button
politics
atticagent
affected
freakin
deduct
replacing
massage
renov
audi
banana
recognition
mosquitoes
pepperoni
vegetable
dirtbike
geor
drowned
ooh
lux
bragging
grinding
upgrade
immune
counselor
unusual
strawberry
sparring
thunderstorms
escaped
dislike
trophy
facility
intimid
disturbing
bubble
disagree
insanely
boston
nachos
soaked
occupied
contractor
astonished
veggies
adrenaline
##prepared
sebastian
chosen
fragile
unpleasant
redemption
accounting
26
75
bom
cs
cer
dagent
dug
gree
hose
hiring
ji
jell
jord
joint
jacks
kha
ketch
ly
mush
nause
naught
obed
pops
pilot
rick
river
vit
vib
virt
west
##fr
##free
##lor
##loy
##lights
##rad
##ds
##dad
##dies
##cube
##craft
##cumst
##ij
##oagent
##bur
##bsagent
##kids
##zzy
thirty
##atory
##oreagent
##itable
##omet
wher
##sty
##utter
##imony
stars
steady
shelf
neut
atl
anon
sue
sung
##ami
##amel
cans
##urally
alter
gotcha
locks
chess
chili
trade
troll
baff
tooagent
##icals
##icesagent
caramel
bru
yearly
##ula
gram
grave
grudge
plastic
##oses
##osity
##ersagent
overchar
ens
unner
unprepared
cloud
cliff
clinton
image
##raging
guarant
##olves
##isted
##istics
##istration
drums
parach
##ealthy
monthly
tackle
beforeagent
sonagent
appropriate
daughteragent
payed
preca
##beat
childish
sadness
girlfriendagent
mustang
pho
carefree
resident
testimony
twin
gradeagent
grandkids
coolest
promising
gamecube
contrib
roomagent
perman
elseagent
examagent
slower
memorable
cuts
studios
woah
sweets
accidentagent
dealer
deciding
breakup
useful
##while
crazyagent
fellow
ahhh
reasonable
freeway
appli
deploy
concern
beachagent
cityagent
pooping
seasons
pains
courses
curve
curse
##unker
medal
midwest
youngeragent
advanced
boxer
landing
hairs
treating
neighborhoodagent
warr
grows
growth
buildings
throws
coverage
ants
refres
legal
ghetto
answering
speaker
infant
chocolates
researching
valid
qualify
explode
extreme
knocking
sentiment
gardening
armadill
condol
licens
anticipate
feedback
accomplishments
requires
replacement
sixth
reunited
backyardagent
refunded
crowds
2019
circumst
dragons
freel
repeating
snowboard
massive
cheerlead
recommended
decorating
dryer
80s
olives
meaningful
headaches
cornhole
included
equipped
washington
silver
rejection
communication
status
concent
concrete
collecting
infection
compassion
falcons
venom
regardless
##build
karate
cigarettes
miami
counseling
hugs
guests
prevent
overweight
convenient
panicked
##field
tomato
dissap
variety
comedy
raccoon
doomed
cinema
exhausted
january
outlook
coyote
clubs
gunshots
bbq
pharmacy
adulting
pacing
inherited
syndrome
administration
incompetent
spooky
maternity
gallon
ikea
ambulance
phobia
puddle
greece
jiu
jello
ketchup
naughty
vibes
baffled
refreshing
armadillo
circumstances
27
36
99
airl
bou
cri
cadill
categ
der
dun
dates
etern
hm
iagent
iwas
kart
mice
nab
nanny
rates
roses
tub
wand
zone
zomb
##aith
##fred
##ein
##gling
##nite
##hal
##mune
##sut
##lic
##luck
##ral
##down
##can
##iel
##iams
##oh
##bon
##pm
##pse
##50
##inst
##ases
myst
##llible
##armed
##stick
##ooo
##chy
##immune
stad
stal
neice
##cky
heater
##ading
##opard
##amiliar
canned
##urer
alw
alfred
seven
loaf
chub
herbs
knees
exotic
weekly
aside
asso
newer
williams
carol
carried
brides
knowledge
grace
##obe
moder
backfl
background
doggie
coz
overtime
overfl
useless
unh
unaw
dip
digging
##igning
faced
maker
startagent
startsagent
gullible
triath
trials
recie
roast
paris
##pered
compens
playground
##acu
remodel
excites
tap
tabl
##izes
belive
checks
mustard
leftover
streak
swift
wishes
resour
planet
plansagent
okagent
ada
##gets
puke
leaking
leaveagent
proced
supply
clevel
marvel
##ints
amazes
realistic
cooler
fib
expectagent
rooms
ident
boots
pod
confl
horses
sleepover
skis
raises
barg
dealt
sneez
##ourished
giftagent
insult
healthagent
20k
tote
sats
relaxation
billsagent
##encies
cursed
storming
gamesagent
apartmentagent
medium
##nessagent
ashev
india
entirely
expense
advise
concerts
possum
conscious
redo
beauty
##iana
warned
warming
traveled
impressedagent
costume
approval
eleph
fridayagent
joe
refusing
arrival
floored
missingagent
ughagent
comforted
published
robin
killer
quitting
furiousagent
satisf
wooden
filed
shaved
shaky
keyed
relieving
##ounter
emergencies
auton
autom
author
ignoring
construction
nicest
shelters
brighter
heav
allows
tournaments
naturally
wrapped
unfaith
unfamiliar
boarding
requested
solution
millionaire
stolenagent
sprayed
therapist
regrets
bullets
suprise
cases
politicians
crawl
crawled
blessings
conditioner
skipping
seagu
chemicals
grey
encounter
earns
instructions
occasionally
soulmate
expectationsagent
determination
audience
olive
challenging
developed
angri
roaches
connection
silence
thousands
yummy
encouraged
lifted
scrap
introduce
traumatizing
drowning
oof
ordeal
autoimmune
sneaky
tempted
verb
separated
errands
melted
ultimately
latest
neuro
magical
details
maintenance
neglected
ebay
operation
lipstick
perspective
staff
ravi
cubicle
jewel
exchange
brutal
consequences
episodes
bracelet
iguana
british
interrupts
milestone
heirloom
craziest
installing
deductible
anonym
cadillac
zombie
stadium
alfredo
chubby
carolina
backflip
triathl
cleveland
sneezed
unfaithful
29
3am
aaa
beaming
bunker
core
crew
fought
fash
gf
gap
hut
hating
hates
jur
kings
mand
mama
mashed
mask
ny
nike
ou
ore
pure
sagent
sets
sides
tan
tand
teddy
wid
wend
yr
##afe
##aken
##fty
##gown
##nb
##nia
##nourished
##tt
##sions
##lph
##ville
##und
##ubl
##uits
##igent
##ius
##xus
##pass
##path
##wher
##erce
toll
##ingly
##ington
##edback
##any
##ancer
##iti
##omore
##otle
inev
bele
bears
beans
begun
##style
##utions
##isc
##isher
##rict
##child
##imes
dolph
stere
shine
liking
abc
abdu
notor
rew
lob
aspect
asian
novel
newly
graud
hopeless
plot
##few
##feedback
wellington
mode
comics
##eping
wentagent
afric
##assic
cocon
ageagent
mule
beta
enth
enroll
debr
unac
unpr
##icking
dive
##igan
lexus
arc
girlsagent
girlfi
maps
nightgown
familly
housework
happensagent
needless
##aughter
prett
rover
partagent
partners
que
##entsagent
remove
##agging
tah
wire
cringe
password
recentlyagent
interrup
dripping
##ipt
shoved
smarter
reluct
phil
stranded
emer
swell
resent
resume
husbands
showagent
twent
##ptoms
grandchild
leap
triple
##abl
gameboy
fierce
winner
contain
ears
earring
owns
amazingly
##umps
ideal
vision
poker
mighty
##ctors
tony
pickles
footstep
snot
mines
minim
mineagent
annoys
##which
horribleagent
experiment
inspected
##ques
counts
packs
fasting
minuteagent
startingagent
deli
delight
childrenagent
##ertive
irs
singer
charges
##gger
windshi
partneragent
muscles
shoppingagent
affordable
indoor
comments
calmed
hairstyle
mistaken
##shirt
repul
republ
onesagent
cloths
stepmother
candles
assertive
hospitalagent
ruining
growling
borrowing
irritates
suns
prayer
garlic
larger
parenting
robot
speakers
fearful
entering
researched
valent
complaint
profit
bathing
attacking
condo
deepest
carts
spiderman
leadership
flooding
250
recovery
daunting
require
elections
programming
rushed
unsafe
owning
shotgun
2017
2016
cancelledagent
addicted
odds
circle
creating
jeopard
confronted
cellphone
pleasure
princi
include
epic
uniagent
##ifications
breathing
breathe
pricey
irritatingagent
searched
economic
deny
humiliating
drawer
pitbu
21st
cocky
duties
##caresagent
fondly
yuckagent
##going
negatively
hillary
insect
chipotle
ceo
malnourished
journ
silent
allergies
funding
moldy
demanding
350
statistics
gears
towel
outfits
increase
lanai
sauces
scene
regarding
##ronic
spaced
renewed
juggling
reflecting
punishment
oooh
frozen
wisdom
overwatch
snuggle
documentary
attempted
jumpscaresagent
symptoms
unpacked
unemployed
unemployment
confirm
castle
civil
tutor
humidity
temporary
favourite
digestive
john
sophomore
perfume
louis
intimidating
cereal
vitam
atlanta
gravel
ensure
condolences
bouqu
##instein
associ
bridesmaid
tablet
resources
fibro
conflict
bargain
seagulls
neurofeedback
ravioli
jewelry
fashion
jurassic
tandem
wendy
graudated
coconut
debris
interrupting
reluctant
footsteps
windshield
republic
5k
ain
ache
bart
bour
bikes
cries
danced
eu
gn
gir
hiv
jit
kong
lam
lous
luch
ms
mates
niss
ops
pim
pad
rust
rope
sigh
tay
tith
trem
tshirt
um
vill
voted
vote
ws
##ael
##fir
##fall
##foot
##got
##nc
##tles
##head
##sive
##lass
##lift
##lusion
##vest
##ram
##rings
##robe
##ded
##uced
##ualy
##cere
##ikely
##yon
##bell
##power
##jack
thus
thai
##enail
##ini
##inate
##inating
toast
toenail
##lle
##arenagent
##esus
washer
##anked
##itly
##eter
##eted
##omer
##eage
##stood
##owed
##idency
##idelity
##rified
##ches
sty
stab
stare
stalled
##aded
##cepting
liber
##uster
didagent
##opter
outback
notifying
reel
rewards
sheep
pra
prest
sew
seeagent
knif
##aul
asp
asse
##icators
##icopter
nois
yearn
##obal
plag
doneagent
moves
##usi
sacri
spill
spilling
werew
scient
scott
##assy
schoo
thanked
oldagent
overhe
##oyal
clin
cling
clutter
manners
dipl
fab
faces
arch
##umel
afteragent
intended
intentions
helicopter
##ister
trial
rose
sounding
buried
playst
remem
excit
accepting
tapping
beings
bigfoot
wii
crushing
interact
preorder
keeper
surface
global
reliving
##rowave
strings
stretch
struct
carefully
swarmed
##haha
disability
resist
territ
tested
catf
leaked
##ationsagent
supper
supplements
superior
supercop
fifa
earrings
cleans
roomie
boils
bodies
poem
peru
permission
specially
confessed
horr
sleepy
slices
slacking
hoursagent
##ocate
defend
wondered
description
desperate
dinneragent
rapid
barcel
pickup
congress
presence
preparedagent
bossagent
escar
honors
thankfulagent
petrified
evacu
expectingagent
##ceptable
nearest
receipt
charm
fails
presenter
fightagent
congratulation
yardagent
indicators
pointless
semesteragent
graduatedagent
statement
coffeeagent
closeagent
treatments
laughs
possessions
consum
disgrace
genius
stepdad
candies
grandmaagent
assurance
gymn
costumes
competing
approve
potter
##eeze
subst
subur
beats
tiredagent
refin
banks
grounded
destruct
adds
salon
contrary
placing
emotionally
dresses
##reme
creamagent
fitting
tourn
robber
satisfying
meantime
cleared
gardens
attacks
peeing
condoms
obst
##opsy
himselfagent
investors
fortnite
ignor
firedagent
article
accounts
kissed
16th
paycheckagent
error
injuries
boats
rats
piggy
federal
official
provider
providing
##working
toyota
circles
products
regretted
harry
belonging
affecting
athlete
materials
matt
liveagent
films
occasions
economics
privacy
trepid
punished
bachelorette
suspect
leftoversagent
forecast
electricity
septemberagent
habits
deceased
audition
banking
stripped
biopsy
hillb
benefit
chefs
responded
penny
mosquito
documents
participated
collected
hungover
pantsagent
backpacking
proposing
lungs
ultras
inches
ankles
additional
independence
unlucky
unlikely
remaining
assistant
orlandoagent
ewww
influence
cravings
bounce
bouncing
adjusting
microwave
wooh
boosted
discussing
convenience
pancreatic
lecturer
maxim
sympath
smacked
uncertainty
hulk
intentional
intentionally
suspicious
updated
digital
puzzle
cycle
michael
misunderstood
narrow
graph
debate
dodge
academic
greedy
burrito
disheart
mobile
weighing
spouseagent
wardrobe
enemy
intelligent
videogame
inspiration
overcharged
permanent
licensing
concentrate
airline
cozumel
unhealthy
unaware
procedure
autonomy
heavily
scrapbook
##whereagent
stereo
lobster
africa
enthusi
unacceptable
emerald
pitbull
nissan
taylor
##lasses
sacrif
structure
supercopa
barcelona
escargot
ultrasound
bul
bones
cv
dau
dil
eth
gay
gau
gord
gains
hooked
jude
jesus
kry
kfc
lath
lugg
lining
nug
penc
patter
rash
rental
sri
sate
sque
tel
tiger
upper
vul
vivid
zeal
##av
##away
##ape
##fy
##gon
##now
##tart
##tra
##hill
##mine
##luse
##vied
##vable
##ragent
##rated
##rance
##ranged
##ipp
##ox
##bac
##pal
##kind
##kins
##zing
##zhe
##64
thie
thail
##eness
##inf
##inos
##ineagent
##ergetic
##entially
##oust
##oudy
tong
tobac
##atar
##atically
##ativeagent
thesis
##asp
##arian
##escri
haul
##iteagent
##itudes
##otes
whoop
begged
##stals
##idated
soap
sofa
##riek
wears
stoop
shr
shave
shook
shade
shriek
libr
anth
analy
##sect
sup
hadnt
outcom
##illa
fever
noticeagent
canyon
##urg
##urking
##urge
reh
reven
revers
rebo
alert
aliveagent
alzhe
whatab
chow
china
chronic
##ards
bacon
##ico
brat
wouldve
##geon
lasted
moist
sail
saves
backwards
spite
spark
spayed
scot
scoring
scale
doggy
kidney
offers
mugged
fires
energetic
unth
cloudy
converse
diary
lem
factory
##orted
##oles
##isting
##ffy
recluse
roaming
dramas
paraly
funnel
somethingagent
##perately
bucket
monitor
playagent
playlist
##prised
coupons
kindagent
##izer
##izon
apps
passions
endure
believing
smiling
smiled
flower
blu
bleach
blond
stream
streaming
undermine
swept
swings
sincere
disown
dissect
reset
resolve
birthdays
twel
##plac
##azz
persons
##nerable
proved
proceed
classesagent
march
##roid
bitagent
sites
passedagent
fiction
##park
##angler
buyagent
wrangler
busch
busiest
ownagent
stove
stocks
attitudes
guessagent
boil
perk
permit
runagent
##ugs
meanwhile
confide
hahaagent
horn
sling
slot
fuzzy
studio
descri
deserving
desperately
retri
baref
heals
presidency
easter
sneaking
breaksagent
handagent
handled
insisted
angryagent
roads
honored
luckyagent
fellagent
decline
petty
packages
imagination
waterpark
beaches
relationshipagent
delay
poopagent
##erties
entrance
curls
resulted
walkagent
##break
##ensely
wordagent
hott
listens
loser
strep
prized
commend
command
commands
pregnantagent
dreaming
honestagent
appreciates
payingagent
calming
streetagent
hairball
momentagent
mileage
humor
minutesagent
closely
##rics
acceptable
anxiously
ladder
##shake
quietly
properties
swimmer
devil
warcraft
stared
crystal
turmo
topic
cruises
yellow
aunts
seller
sellagent
refer
sync
generator
generosity
offering
offeragent
socialize
dresser
kicks
accur
damages
speeches
lifes
strangely
litlle
##chef
infinity
infidelity
signal
adopting
##uba
sandwhich
benn
housing
files
obama
##loaf
detect
carpetagent
creek
create
skype
avoiding
awardagent
notebook
menu
snapped
levels
saturdays
corrected
creeps
creeped
owed
hyd
teary
nursery
bowls
depending
grilling
196
splurge
tends
wifes
5000
questioned
milkshake
wheat
athletes
thronesagent
napkins
discou
coping
privile
funeralagent
masterchef
meatloaf
mechanics
suffered
waitressagent
formula
60s
psyched
undies
choosing
mentor
developing
mowed
activity
connections
hosting
responsibilityagent
priority
frequent
banging
extensions
flashlight
dragonagent
magician
hmmm
potato
adventures
assisted
traditions
ohhhh
scammed
ordinary
braclet
exhib
temptation
saddest
rumors
snuggled
kayakingagent
traps
scoreagent
overdraft
surroundings
errand
initially
revol
squirrels
source
whispered
confirmed
michigan
brewer
virgin
dispute
instrument
investigation
spaceship
shredded
chainsaw
mturking
dosnt
carpool
positivity
noodles
shorter
inconvenient
grieve
liquor
frankly
georgia
mushy
popsicles
ricky
sunglasses
unnerving
appliances
warrant
eternity
alwasy
recieved
asheville
angrily
anonymous
triathlon
arcade
prettiest
delighted
valentine
principal
vitamins
republicans
bartender
pimple
clinic
diploma
remembers
excitied
gymnast
disheartened
enthusiastic
krystals
lathe
luggage
satell
squee
vulnerable
zealand
thailand
tongue
tobacco
library
revenge
alzheim
whataburger
sailor
turmoil
93
91
92
aim
ack
bf
bone
bob
bead
bending
ct
cit
cob
cure
cave
dc
dash
dare
dili
efficient
fas
fist
fade
guts
hind
hong
jon
jeez
jsut
joust
link
mens
nas
nom
niger
n64
os
oy
ped
pes
pall
roo
rang
ske
saus
sized
sizes
tam
tube
yoy
##felt
##eor
##ext
##god
##tv
##top
##ht
##hagent
##men
##min
##mos
##mble
##mph
##lide
##liest
##vice
##ros
##rrow
##uc
##cesagent
##iate
##iven
##of
##ocked
##oves
##pour
##wi
##warming
##40
##za
thir
##enitly
##inator
##ern
toot
##atley
##inging
##orial
##ndon
##llen
wasps
##anas
##ita
##itation
##itated
whos
inthe
becky
##elon
##elele
sole
##ooper
##leans
meowing
isagent
##imate
stitch
stateagent
shipping
##verted
lil
lick
liver
sufficient
##ales
outd
outstanding
outpour
feces
canagent
theyre
##ura
sheet
goto
whatso
goods
london
allig
chir
chap
heres
hersh
tru
tran
tray
traged
##dayagent
frame
fruits
fruster
##ears
##eared
knit
exited
##ounded
##unct
bac
willpower
bris
brad
brake
braz
bridge
knowled
##ulty
##ulations
grasp
plum
##geons
lasting
anyhow
everyon
everywhereagent
spicy
scu
scre
orleans
peice
schem
coord
copper
##elty
wage
wagon
usaagent
hardy
union
united
unpl
univer
ungod
clients
div
dieagent
##igner
leather
aws
finance
scaring
scarred
##oler
recession
reclin
helpless
rod
dram
drops
parade
downloaded
excel
##ossom
cheered
crashing
passer
passeng
believable
surve
glove
glued
gloves
blat
blink
blossom
underdog
careg
resid
catfish
highagent
terrific
##azed
vacc
restara
sisteragent
crapped
boiling
bogus
popped
orderagent
summ
forgave
slick
slides
border
boyfriendagent
defenitly
shockedagent
elsewhere
picks
picky
teammates
##phia
realizes
headagent
snoop
mins
rank
sweetagent
talkingagent
restaurantagent
meteor
extent
roadagent
roadside
heartfelt
honking
cardagent
differently
meetings
##ansas
##ailing
coworkeragent
falls
billion
managers
freeze
applications
polar
polic
trains
rainstorm
minds
entry
irate
caughtagent
completing
scram
charger
lightening
fighters
disappoint
lossagent
lonelyagent
weightagent
adviceagent
cooper
certified
difficulty
quicker
calories
dental
frustration
closes
studyingagent
positively
weddingagent
possi
disgu
quieter
reply
genu
darkness
loudagent
stares
shortcake
bathroomagent
clothesagent
competitor
everydayagent
severely
rugs
bandagent
##olution
lego
legends
holes
salv
performanceagent
churchagent
replied
drawn
avatar
holidayagent
fitness
balls
lifetime
finishes
infomer
bonuses
values
competitionagent
naw
skillsagent
explained
groom
peeve
embarrassingagent
farts
treehouse
carton
fourth
posters
##taking
sticks
##namon
smoked
leads
detention
bugatt
anticipated
goldie
artwork
honorable
constant
guns
bodybuild
nicu
fatig
awards
chatroom
mouthed
wrapping
handsome
stationed
solar
solitude
despair
fishes
electron
unsc
owes
racoon
officeagent
grandparent
grief
shootings
politician
wifi
seniors
crimes
harass
safari
affectionate
dumps
freaks
educational
welding
buns
discovery
membership
seats
seattle
giggling
braver
technical
technician
##arium
spaniel
admitting
filling
suspen
selection
recognized
merit
comparing
development
ecl
sucker
lending
tacos
spirits
rabbitagent
scolded
flaunting
budgeted
foolish
unloved
pretending
laneagent
breathtaking
chewing
tommor
bmwagent
ewwww
portion
steaming
cinnamon
karma
luc
grinds
cigarette
gaining
receptionist
bleh
prevented
discuss
weapon
chills
bullying
pillow
ukelele
olympics
obsessed
tomatoes
violin
various
threatening
brushed
raccoons
suspended
ultimate
civic
maintenence
##force
misunderstanding
murdered
##copy
swallowed
instruments
degrees
##hhhagent
investigate
russia
prospect
cheesy
consolation
necessarily
heightsagent
antibiotic
antibiotics
angeles
radiation
data
martial
waterslide
beggar
worms
recruiter
broadway
illegal
millenial
nauseous
obedience
whereagent
neutral
parachute
precautions
contributing
deployed
cheerleading
dunno
mystery
identity
mandatory
oreos
notorious
unpred
girlfiend
mistakenly
jeopardy
journal
jittery
tremend
prestigious
scientific
preordered
territorial
suburbs
pencil
##nowledge
supreme
rehear
scotland
barefoot
virginia
squeeze
acknowledge
diligent
jousting
pesky
sausage
whatsoever
alligator
hershey
tragedy
brazil
coordinated
ungodly
recliner
passengers
restaraunt
bodybuilding
1am
2agent
4am
5am
98
ait
aqu
ailing
bt
bc
bil
bip
cus
cact
coop
dv
dill
dna
dys
dps
dwell
eight
eric
fate
fied
foul
f40
gou
gad
hust
il
ii
ira
jr
jb
jets
ky
lb
lst
lone
lun
lasy
mam
mild
mmm
mute
nh
native
nca
nagging
od
pm
pome
pest
puck
pens
pto
pts
rou
rig
rack
rif
ramp
raging
sle
sir
sly
signing
sassy
ties
tense
vot
void
wad
wester
yess
zom
zoom
##aign
##fire
##tub
##met
##melon
##lat
##life
##vo
##vin
##vent
##ray
##rum
##rol
##dam
##dles
##uk
##ull
##uel
##ught
##uase
##ucing
##uana
##cies
##ciss
##cuse
##xious
##oating
##bid
##bery
##bud
##pin
##worm
##kj
##12
##1agent
##20
tha
##iner
##erer
##entive
toler
##eds
##ared
##arctic
hamm
##aned
##anate
##itating
##itals
##ompt
##omistic
##vey
bean
bever
##stop
##uted
forces
##iser
sox
##rier
##riageagent
meas
isp
##chest
##chain
##imited
sting
stun
stones
nev
neiceagent
amster
heh
##adas
realy
subs
##ament
abhor
outta
##illies
notices
canal
##outs
shee
shell
sheesh
alp
alum
alab
alarming
sevice
##asting
allowing
cha
chilly
chief
##antial
tram
knives
exterm
goingagent
bab
bapt
gret
grid
##obic
plain
plugged
##osely
##osure
##oscopy
yourselves
yesagent
moly
##ussy
sav
sap
safer
##iles
##ilites
compelled
wantagent
backs
backst
backup
oral
orchest
peck
kidna
cod
coat
coins
waist
offensive
overb
overly
overrea
mumm
loops
loosing
becuase
energ
unrel
unicycle
clar
clum
clicking
conqu
concept
##raction
##igence
##igible
leon
fax
financing
##ishaw
##ummy
magn
guided
intri
intric
intoler
##olar
whipped
triv
recovers
drone
##emark
littleagent
soundagent
funn
fungus
buckets
quoted
betterhal
##acles
couth
cougar
remo
excurs
tape
belg
beloved
wiped
cram
crunch
interven
interaction
surp
relied
flick
floating
blur
bliss
leftagent
##hache
disrupt
disorder
lolagent
resil
wherever
planner
callagent
showsagent
twink
twitch
adam
tryingagent
##abol
mary
marij
##roit
bites
bitco
cooling
prompt
context
earbud
resting
moral
crab
writer
stopping
idk
boot
papa
sickness
confess
cows
elim
sled
slowing
graduateagent
skilled
companions
studing
apoc
defense
yetagent
motheragent
rapt
barbe
pickle
congrad
imprompt
pizzaagent
towns
hurtagent
inviting
easiest
snes
snag
sneeze
breakagent
handles
grossest
meth
insul
insured
gamer
heartwarming
##gram
##granate
cardio
healthcare
peter
cameagent
fastest
differences
problemagent
footballagent
watermelon
concerns
finalist
lonley
childrens
anime
seasoned
curfew
iron
fullest
singers
##ggy
middles
truckagent
worthy
jealousy
prim
